{"merges": {"101,32": 259, "116,104": 260, "44,32": 261, "116,32": 262, "115,32": 263, "105,110": 264, "121,32": 265, "100,32": 266, "111,117": 267, "114,32": 268, "110,32": 269, "111,32": 270, "101,97": 271, "101,261": 272, "101,114": 273, "97,110": 274, "32,260": 275, "108,108": 276, "104,97": 277, "111,114": 278, "101,115": 279, "102,32": 280, "264,103": 281, "101,110": 282, "46,10": 283, "108,111": 284, "260,32": 285, "105,263": 286, "101,266": 287, "111,119": 288, "115,116": 289, "97,114": 290, "109,265": 291, "116,270": 292, "99,104": 293, "267,32": 294, "111,110": 295, "101,269": 296, "73,32": 297, "276,32": 298, "118,259": 299, "101,268": 300, "119,105": 301, "111,268": 302, "111,280": 303, "115,101": 304, "274,266": 305, "281,32": 306, "103,104": 307, "115,262": 308, "111,109": 309, "110,266": 310, "260,259": 311, "65,310": 312, "84,104": 313, "97,262": 314, "119,104": 315, "264,32": 316, "108,105": 317, "101,263": 318, "101,101": 319, "100,261": 320, "39,263": 321, "116,105": 322, "114,105": 323, "114,101": 324, "116,261": 325, "115,259": 326, "111,269": 327, "109,259": 328, "110,111": 329, "114,97": 330, "115,117": 331, "293,32": 332, "87,104": 333, "260,314": 334, "115,104": 335, "117,262": 336, "260,101": 337, "267,268": 338, "109,97": 339, "102,97": 340, "58,32": 341, "271,114": 342, "115,261": 343, "108,266": 344, "329,262": 345, "277,262": 346, "260,294": 347, "260,265": 348, "97,32": 349, "108,97": 350, "99,259": 351, "275,259": 352, "301,285": 353, "100,111": 354, "98,101": 355, "105,262": 356, "115,277": 357, "288,32": 358, "108,32": 359, "284,299": 360, "117,116": 361, "102,278": 362, "98,259": 363, "107,32": 364, "121,261": 365, "119,278": 366, "116,114": 367, "100,105": 368, "104,286": 369, "119,97": 370, "111,102": 371, "97,269": 372, "121,338": 373, "105,268": 374, "101,118": 375, "267,307": 376, "117,114": 377, "98,271": 378, "107,259": 379, "109,32": 380, "101,283": 381, "105,307": 382, "304,108": 383, "275,265": 384, "275,101": 385, "121,294": 386, "105,114": 387, "284,118": 388, "102,302": 389, "115,97": 390, "105,332": 391, "101,99": 392, "264,259": 393, "112,114": 394, "273,259": 395, "105,108": 396, "117,110": 397, "105,116": 398, "109,278": 399, "101,121": 400, "119,319": 401, "102,114": 402, "100,263": 403, "66,336": 404, "378,361": 405, "354,285": 406, "101,262": 407, "114,271": 408, "84,346": 409, "290,259": 410, "267,344": 411, "84,270": 412, "115,270": 413, "97,264": 414, "97,263": 415, "108,265": 416, "109,111": 417, "115,112": 418, "279,262": 419, "98,265": 420, "100,270": 421, "97,116": 422, "63,10": 423, "313,259": 424, "116,263": 425, "109,101": 426, "99,295": 427, "116,273": 428, "367,117": 429, "97,298": 430, "98,336": 431, "279,263": 432, "70,302": 433, "115,401": 434, "111,111": 435, "108,271": 436, "109,272": 437, "101,320": 438, "97,276": 439, "309,32": 440, "112,111": 441, "383,280": 442, "98,108": 443, "333,296": 444, "261,312": 445, "277,299": 446, "115,272": 447, "111,108": 448, "110,270": 449, "260,376": 450, "99,309": 451, "104,105": 452, "100,101": 453, "104,342": 454, "273,101": 455, "109,282": 456, "103,259": 457, "109,117": 458, "113,117": 459, "337,259": 460, "100,271": 461, "260,286": 462, "100,97": 463, "267,110": 464, "111,326": 465, "101,119": 466, "357,298": 467, "399,259": 468, "116,97": 469, "112,32": 470, "315,391": 471, "119,346": 472, "273,263": 473, "114,288": 474, "315,296": 475, "116,300": 476, "102,117": 477, "105,298": 478, "284,111": 479, "103,105": 480, "267,114": 481, "104,271": 482, "295,103": 483, "275,314": 484, "317,118": 485, "405,265": 486, "301,260": 487, "115,105": 488, "100,283": 489, "112,97": 490, "99,107": 491, "83,270": 492, "112,290": 493, "41,32": 494, "335,411": 495, "434,262": 496, "331,114": 497, "101,276": 498, "267,263": 499, "101,108": 500, "273,265": 501, "330,105": 502, "111,260": 503, "284,110": 504, "333,391": 505, "105,276": 506, "110,288": 507, "103,330": 508, "289,114": 509, "65,263": 510, "109,393": 511, "101,120": 512, "114,111": 513, "309,259": 514, "108,259": 515, "109,264": 516, "99,372": 517, "382,262": 518, "322,328": 519, "121,267": 520, "112,502": 521, "116,283": 522, "272,312": 523, "279,261": 524, "100,259": 525, "79,268": 526, "104,259": 527, "115,287": 528, "282,100": 529, "111,344": 530, "118,105": 531, "98,97": 532, "79,32": 533, "101,321": 534, "301,298": 535, "118,273": 536, "288,269": 537, "290,262": 538, "339,379": 539, "322,327": 540, "112,112": 541, "260,372": 542, "394,111": 543, "277,285": 544, "385,374": 545, "39,308": 546, "98,111": 547, "103,97": 548, "313,296": 549, "275,294": 550, "402,440": 551, "304,101": 552, "261,305": 553, "100,279": 554, "110,97": 555, "340,374": 556, "104,300": 557, "109,98": 558, "118,318": 559, "101,105": 560, "375,501": 561, "73,269": 562, "482,118": 563, "99,364": 564, "313,265": 565, "385,259": 566, "99,274": 567, "295,272": 568, "99,272": 569, "107,263": 570, "417,308": 571, "362,259": 572, "110,358": 573, "103,414": 574, "289,261": 575, "117,112": 576, "100,392": 577, "87,105": 578, "119,290": 579, "112,323": 580, "337,374": 581, "101,341": 582, "402,309": 583, "400,318": 584, "295,259": 585, "260,296": 586, "375,300": 587, "116,287": 588, "116,111": 589, "325,312": 590, "59,32": 591, "39,32": 592, "273,321": 593, "331,109": 594, "121,407": 595, "114,274": 596, "114,279": 597, "264,352": 598, "383,102": 599, "281,261": 600, "100,117": 601, "355,306": 602, "119,395": 603, "110,466": 604, "115,514": 605, "110,302": 606, "324,99": 607, "317,379": 608, "282,351": 609, "115,111": 610, "111,112": 611, "275,286": 612, "77,265": 613, "121,321": 614, "307,262": 615, "315,395": 616, "292,311": 617, "108,432": 618, "115,263": 619, "273,261": 620, "101,298": 621, "335,288": 622, "289,478": 623, "109,105": 624, "317,102": 625, "331,332": 626, "100,272": 627, "107,507": 628, "109,112": 629, "370,263": 630, "116,377": 631, "114,117": 632, "98,117": 633, "102,105": 634, "354,308": 635, "282,116": 636, "368,266": 637, "400,259": 638, "284,119": 639, "112,436": 640, "274,103": 641, "297,97": 642, "388,272": 643, "452,380": 644, "33,10": 645, "77,97": 646, "119,264": 647, "313,294": 648, "109,381": 649, "594,109": 650, "282,262": 651, "279,259": 652, "337,272": 653, "366,344": 654, "339,265": 655, "264,351": 656, "337,265": 657, "504,103": 658, "98,408": 659, "260,261": 660, "304,263": 661, "289,274": 662, "107,306": 663, "72,358": 664, "103,117": 665, "104,117": 666, "117,326": 667, "97,99": 668, "112,350": 669, "78,302": 670, "101,100": 671, "503,300": 672, "103,111": 673, "429,259": 674, "112,273": 675, "84,105": 676, "115,99": 677, "291,360": 678, "102,264": 679, "450,32": 680, "116,282": 681, "100,319": 682, "116,306": 683, "304,259": 684, "105,280": 685, "260,267": 686, "108,262": 687, "317,299": 688, "118,272": 689, "458,308": 690, "101,102": 691, "97,108": 692, "97,100": 693, "100,343": 694, "574,308": 695, "271,108": 696, "477,359": 697, "121,283": 698, "316,291": 699, "98,350": 700, "355,116": 701, "497,259": 702, "390,265": 703, "260,306": 704, "109,274": 705, "281,263": 706, "121,263": 707, "394,279": 708, "103,474": 709, "119,411": 710, "119,323": 711, "101,116": 712, "388,534": 713, "405,614": 714, "260,264": 715, "521,326": 716, "448,320": 717, "102,392": 718, "73,280": 719, "267,116": 720, "103,435": 721, "260,300": 722, "289,97": 723, "455,572": 724, "576,327": 725, "112,282": 726, "102,387": 727, "291,442": 728, "340,387": 729, "331,98": 730, "116,265": 731, "371,384": 732, "279,325": 733, "259,303": 734, "119,114": 735, "105,102": 736, "260,465": 737, "118,296": 738, "97,504": 739, "283,313": 740, "287,353": 741, "261,412": 742, "508,99": 743, "89,407": 744, "271,268": 745, "97,370": 746, "343,305": 747, "98,330": 748, "463,265": 749, "426,321": 750, "461,268": 751, "262,303": 752, "480,299": 753, "72,97": 754, "454,262": 755, "110,432": 756, "117,263": 757, "371,352": 758, "97,359": 759, "97,98": 760, "274,351": 761, "105,103": 762, "264,384": 763, "267,108": 764, "335,259": 765, "320,312": 766, "377,259": 767, "119,621": 768, "98,290": 769, "578,285": 770, "277,541": 771, "277,116": 772, "109,318": 773, "115,382": 774, "289,278": 775, "110,382": 776, "83,656": 777, "97,102": 778, "116,343": 779, "116,483": 780, "780,117": 781, "260,105": 782, "98,114": 783, "340,108": 784, "98,323": 785, "317,307": 786, "104,32": 787, "115,107": 788, "458,332": 789, "100,308": 790, "103,350": 791, "79,280": 792, "388,101": 793, "376,32": 794, "115,281": 795, "99,32": 796, "104,358": 797, "443,259": 798, "115,295": 799, "263,303": 800, "102,639": 801, "105,100": 802, "100,300": 803, "106,111": 804, "105,293": 805, "119,498": 806, "101,265": 807, "261,409": 808, "100,287": 809, "116,117": 810, "297,446": 811, "264,545": 812, "112,414": 813, "625,259": 814, "579,266": 815, "642,380": 816, "112,105": 817, "389,291": 818, "340,268": 819, "350,116": 820, "102,323": 821, "119,111": 822, "701,476": 823, "70,114": 824, "109,518": 825, "110,587": 826, "260,393": 827, "589,270": 828, "103,108": 829, "394,267": 830, "366,285": 831, "100,341": 832, "264,275": 833, "293,105": 834, "347,538": 835, "116,498": 836, "100,114": 837, "100,288": 838, "103,408": 839, "110,422": 840, "104,481": 841, "289,506": 842, "115,283": 843, "105,499": 844, "509,483": 845, "97,103": 846, "479,364": 847, "66,265": 848, "333,270": 849, "115,306": 850, "422,259": 851, "107,264": 852, "327,311": 853, "318,303": 854, "322,295": 855, "105,359": 856, "520,261": 857, "784,326": 858, "292,291": 859, "112,377": 860, "368,115": 861, "84,277": 862, "862,269": 863, "105,109": 864, "107,261": 865, "119,259": 866, "121,341": 867, "370,289": 868, "439,352": 869, "108,117": 870, "304,283": 871, "99,464": 872, "273,287": 873, "329,704": 874, "103,636": 875, "452,109": 876, "111,39": 877, "65,32": 878, "271,332": 879, "97,541": 880, "103,323": 881, "282,266": 882, "434,116": 883, "107,319": 884, "102,262": 885, "98,419": 886, "322,437": 887, "104,530": 888, "112,324": 889, "78,111": 890, "106,117": 891, "456,262": 892, "115,592": 893, "375,296": 894, "110,263": 895, "303,373": 896, "451,112": 897, "116,414": 898, "267,262": 899, "73,275": 900, "333,396": 901, "99,97": 902, "117,108": 903, "103,114": 904, "99,408": 905, "104,101": 906, "100,265": 907, "98,279": 908, "463,121": 909, "339,525": 910, "98,479": 911, "119,309": 912, "371,275": 913, "112,398": 914, "315,265": 915, "118,101": 916, "87,346": 917, "385,272": 918, "315,455": 919, "650,593": 920, "108,407": 921, "116,296": 922, "117,470": 923, "334,347": 924, "98,342": 925, "282,321": 926, "39,114": 927, "115,115": 928, "293,274": 929, "119,274": 930, "577,97": 931, "277,266": 932, "116,341": 933, "104,121": 934, "108,264": 935, "536,326": 936, "711,116": 937, "98,278": 938, "511,537": 939, "104,274": 940, "267,310": 941, "418,105": 942, "824,440": 943, "116,529": 944, "116,330": 945, "339,107": 946, "98,272": 947, "319,283": 948, "333,395": 949, "512,99": 950, "118,306": 951, "362,380": 952, "315,465": 953, "97,457": 954, "121,423": 955, "357,687": 956, "85,110": 957, "327,348": 958, "282,403": 959, "101,499": 960, "875,515": 961, "83,97": 962, "301,276": 963, "322,773": 964, "290,325": 965, "315,805": 966, "116,397": 967, "116,323": 968, "272,305": 969, "771,265": 970, "552,109": 971, "277,308": 972, "78,270": 973, "339,121": 974, "974,308": 975, "103,324": 976, "282,99": 977, "100,342": 978, "115,271": 979, "563,296": 980, "429,285": 981, "443,279": 982, "343,312": 983, "335,32": 984, "112,263": 985, "115,341": 986, "106,392": 987, "727,308": 988, "77,393": 989, "337,380": 990, "99,277": 991, "282,103": 992, "39,116": 993, "721,266": 994, "97,115": 995, "441,302": 996, "324,320": 997, "110,518": 998, "69,738": 999, "430,291": 1000, "264,118": 1001, "115,108": 1002, "746,365": 1003, "102,342": 1004, "942,323": 1005, "110,261": 1006, "426,399": 1007, "319,100": 1008, "116,321": 1009, "599,45": 1010, "102,111": 1011, "402,279": 1012, "262,311": 1013, "830,266": 1014, "367,271": 1015, "73,102": 1016, "764,790": 1017, "274,115": 1018, "488,327": 1019, "292,363": 1020, "604,32": 1021, "435,364": 1022, "791,619": 1023}, "vocab": {"0": "\u0000", "1": "\u0001", "2": "\u0002", "3": "\u0003", "4": "\u0004", "5": "\u0005", "6": "\u0006", "7": "\u0007", "8": "\b", "9": "\t", "10": "\n", "11": "\u000b", "12": "\f", "13": "\r", "14": "\u000e", "15": "\u000f", "16": "\u0010", "17": "\u0011", "18": "\u0012", "19": "\u0013", "20": "\u0014", "21": "\u0015", "22": "\u0016", "23": "\u0017", "24": "\u0018", "25": "\u0019", "26": "\u001a", "27": "\u001b", "28": "\u001c", "29": "\u001d", "30": "\u001e", "31": "\u001f", "32": " ", "33": "!", "34": "\"", "35": "#", "36": "$", "37": "%", "38": "&", "39": "'", "40": "(", "41": ")", "42": "*", "43": "+", "44": ",", "45": "-", "46": ".", "47": "/", "48": "0", "49": "1", "50": "2", "51": "3", "52": "4", "53": "5", "54": "6", "55": "7", "56": "8", "57": "9", "58": ":", "59": ";", "60": "<", "61": "=", "62": ">", "63": "?", "64": "@", "65": "A", "66": "B", "67": "C", "68": "D", "69": "E", "70": "F", "71": "G", "72": "H", "73": "I", "74": "J", "75": "K", "76": "L", "77": "M", "78": "N", "79": "O", "80": "P", "81": "Q", "82": "R", "83": "S", "84": "T", "85": "U", "86": "V", "87": "W", "88": "X", "89": "Y", "90": "Z", "91": "[", "92": "\\", "93": "]", "94": "^", "95": "_", "96": "`", "97": "a", "98": "b", "99": "c", "100": "d", "101": "e", "102": "f", "103": "g", "104": "h", "105": "i", "106": "j", "107": "k", "108": "l", "109": "m", "110": "n", "111": "o", "112": "p", "113": "q", "114": "r", "115": "s", "116": "t", "117": "u", "118": "v", "119": "w", "120": "x", "121": "y", "122": "z", "123": "{", "124": "|", "125": "}", "126": "~", "127": "\u007f", "128": "\u0080", "129": "\u0081", "130": "\u0082", "131": "\u0083", "132": "\u0084", "133": "\u0085", "134": "\u0086", "135": "\u0087", "136": "\u0088", "137": "\u0089", "138": "\u008a", "139": "\u008b", "140": "\u008c", "141": "\u008d", "142": "\u008e", "143": "\u008f", "144": "\u0090", "145": "\u0091", "146": "\u0092", "147": "\u0093", "148": "\u0094", "149": "\u0095", "150": "\u0096", "151": "\u0097", "152": "\u0098", "153": "\u0099", "154": "\u009a", "155": "\u009b", "156": "\u009c", "157": "\u009d", "158": "\u009e", "159": "\u009f", "160": "\u00a0", "161": "\u00a1", "162": "\u00a2", "163": "\u00a3", "164": "\u00a4", "165": "\u00a5", "166": "\u00a6", "167": "\u00a7", "168": "\u00a8", "169": "\u00a9", "170": "\u00aa", "171": "\u00ab", "172": "\u00ac", "173": "\u00ad", "174": "\u00ae", "175": "\u00af", "176": "\u00b0", "177": "\u00b1", "178": "\u00b2", "179": "\u00b3", "180": "\u00b4", "181": "\u00b5", "182": "\u00b6", "183": "\u00b7", "184": "\u00b8", "185": "\u00b9", "186": "\u00ba", "187": "\u00bb", "188": "\u00bc", "189": "\u00bd", "190": "\u00be", "191": "\u00bf", "192": "\u00c0", "193": "\u00c1", "194": "\u00c2", "195": "\u00c3", "196": "\u00c4", "197": "\u00c5", "198": "\u00c6", "199": "\u00c7", "200": "\u00c8", "201": "\u00c9", "202": "\u00ca", "203": "\u00cb", "204": "\u00cc", "205": "\u00cd", "206": "\u00ce", "207": "\u00cf", "208": "\u00d0", "209": "\u00d1", "210": "\u00d2", "211": "\u00d3", "212": "\u00d4", "213": "\u00d5", "214": "\u00d6", "215": "\u00d7", "216": "\u00d8", "217": "\u00d9", "218": "\u00da", "219": "\u00db", "220": "\u00dc", "221": "\u00dd", "222": "\u00de", "223": "\u00df", "224": "\u00e0", "225": "\u00e1", "226": "\u00e2", "227": "\u00e3", "228": "\u00e4", "229": "\u00e5", "230": "\u00e6", "231": "\u00e7", "232": "\u00e8", "233": "\u00e9", "234": "\u00ea", "235": "\u00eb", "236": "\u00ec", "237": "\u00ed", "238": "\u00ee", "239": "\u00ef", "240": "\u00f0", "241": "\u00f1", "242": "\u00f2", "243": "\u00f3", "244": "\u00f4", "245": "\u00f5", "246": "\u00f6", "247": "\u00f7", "248": "\u00f8", "249": "\u00f9", "250": "\u00fa", "251": "\u00fb", "252": "\u00fc", "253": "\u00fd", "254": "\u00fe", "255": "\u00ff", "256": "<|sos|>", "257": "<|eos|>", "258": "<|unk|>", "259": "e ", "260": "th", "261": ", ", "262": "t ", "263": "s ", "264": "in", "265": "y ", "266": "d ", "267": "ou", "268": "r ", "269": "n ", "270": "o ", "271": "ea", "272": "e, ", "273": "er", "274": "an", "275": " th", "276": "ll", "277": "ha", "278": "or", "279": "es", "280": "f ", "281": "ing", "282": "en", "283": ".\n", "284": "lo", "285": "th ", "286": "is ", "287": "ed ", "288": "ow", "289": "st", "290": "ar", "291": "my ", "292": "to ", "293": "ch", "294": "ou ", "295": "on", "296": "en ", "297": "I ", "298": "ll ", "299": "ve ", "300": "er ", "301": "wi", "302": "or ", "303": "of ", "304": "se", "305": "and ", "306": "ing ", "307": "gh", "308": "st ", "309": "om", "310": "nd ", "311": "the ", "312": "And ", "313": "Th", "314": "at ", "315": "wh", "316": "in ", "317": "li", "318": "es ", "319": "ee", "320": "d, ", "321": "'s ", "322": "ti", "323": "ri", "324": "re", "325": "t, ", "326": "se ", "327": "on ", "328": "me ", "329": "no", "330": "ra", "331": "su", "332": "ch ", "333": "Wh", "334": "that ", "335": "sh", "336": "ut ", "337": "the", "338": "our ", "339": "ma", "340": "fa", "341": ": ", "342": "ear", "343": "s, ", "344": "ld ", "345": "not ", "346": "hat ", "347": "thou ", "348": "thy ", "349": "a ", "350": "la", "351": "ce ", "352": " the ", "353": "with ", "354": "do", "355": "be", "356": "it ", "357": "sha", "358": "ow ", "359": "l ", "360": "love ", "361": "ut", "362": "for", "363": "be ", "364": "k ", "365": "y, ", "366": "wor", "367": "tr", "368": "di", "369": "his ", "370": "wa", "371": "of", "372": "an ", "373": "your ", "374": "ir ", "375": "ev", "376": "ough", "377": "ur", "378": "bea", "379": "ke ", "380": "m ", "381": "e.\n", "382": "igh", "383": "sel", "384": " thy ", "385": " the", "386": "you ", "387": "ir", "388": "lov", "389": "for ", "390": "sa", "391": "ich ", "392": "ec", "393": "ine ", "394": "pr", "395": "ere ", "396": "il", "397": "un", "398": "it", "399": "mor", "400": "ey", "401": "wee", "402": "fr", "403": "ds ", "404": "But ", "405": "beaut", "406": "doth ", "407": "et ", "408": "rea", "409": "That ", "410": "are ", "411": "ould ", "412": "To ", "413": "so ", "414": "ain", "415": "as ", "416": "ly ", "417": "mo", "418": "sp", "419": "est ", "420": "by ", "421": "do ", "422": "at", "423": "?\n", "424": "The ", "425": "ts ", "426": "me", "427": "con", "428": "ter", "429": "tru", "430": "all ", "431": "but ", "432": "ess ", "433": "For ", "434": "swee", "435": "oo", "436": "lea", "437": "me, ", "438": "ed, ", "439": "all", "440": "om ", "441": "po", "442": "self ", "443": "bl", "444": "When ", "445": ", And ", "446": "have ", "447": "se, ", "448": "ol", "449": "no ", "450": "though", "451": "com", "452": "hi", "453": "de", "454": "hear", "455": "ere", "456": "men", "457": "ge ", "458": "mu", "459": "qu", "460": "thee ", "461": "dea", "462": "this ", "463": "da", "464": "oun", "465": "ose ", "466": "ew", "467": "shall ", "468": "more ", "469": "ta", "470": "p ", "471": "which ", "472": "what ", "473": "ers ", "474": "row", "475": "when ", "476": "ter ", "477": "fu", "478": "ill ", "479": "loo", "480": "gi", "481": "our", "482": "hea", "483": "ong", "484": " that ", "485": "liv", "486": "beauty ", "487": "with", "488": "si", "489": "d.\n", "490": "pa", "491": "ck", "492": "So ", "493": "par", "494": ") ", "495": "should ", "496": "sweet ", "497": "sur", "498": "ell", "499": "ous ", "500": "el", "501": "ery ", "502": "rai", "503": "oth", "504": "lon", "505": "Which ", "506": "ill", "507": "now", "508": "gra", "509": "str", "510": "As ", "511": "mine ", "512": "ex", "513": "ro", "514": "ome ", "515": "le ", "516": "min", "517": "can ", "518": "ight ", "519": "time ", "520": "you", "521": "prai", "522": "t.\n", "523": "e, And ", "524": "es, ", "525": "de ", "526": "Or ", "527": "he ", "528": "sed ", "529": "end", "530": "old ", "531": "vi", "532": "ba", "533": "O ", "534": "e's ", "535": "will ", "536": "ver", "537": "own ", "538": "art ", "539": "make ", "540": "tion ", "541": "pp", "542": "than ", "543": "pro", "544": "hath ", "545": " their ", "546": "'st ", "547": "bo", "548": "ga", "549": "Then ", "550": " thou ", "551": "from ", "552": "see", "553": ", and ", "554": "des", "555": "na", "556": "fair ", "557": "her ", "558": "mb", "559": "ves ", "560": "ei", "561": "every ", "562": "In ", "563": "heav", "564": "ck ", "565": "Thy ", "566": " thee ", "567": "can", "568": "one, ", "569": "ce, ", "570": "ks ", "571": "most ", "572": "fore ", "573": "now ", "574": "gain", "575": "st, ", "576": "up", "577": "dec", "578": "Wi", "579": "war", "580": "pri", "581": "their ", "582": "e: ", "583": "from", "584": "eyes ", "585": "one ", "586": "then ", "587": "ever ", "588": "ted ", "589": "to", "590": "t, And ", "591": "; ", "592": "' ", "593": "er's ", "594": "sum", "595": "yet ", "596": "ran", "597": "res", "598": "in the ", "599": "self", "600": "ing, ", "601": "du", "602": "being ", "603": "were ", "604": "new", "605": "some ", "606": "nor ", "607": "rec", "608": "like ", "609": "ence ", "610": "so", "611": "op", "612": " this ", "613": "My ", "614": "y's ", "615": "ght ", "616": "where ", "617": "to the ", "618": "less ", "619": "ss ", "620": "er, ", "621": "ell ", "622": "show", "623": "still ", "624": "mi", "625": "lif", "626": "such ", "627": "de, ", "628": "know", "629": "mp", "630": "was ", "631": "tur", "632": "ru", "633": "bu", "634": "fi", "635": "dost ", "636": "ent", "637": "did ", "638": "eye ", "639": "low", "640": "plea", "641": "ang", "642": "I a", "643": "love, ", "644": "him ", "645": "!\n", "646": "Ma", "647": "win", "648": "Thou ", "649": "me.\n", "650": "summ", "651": "ent ", "652": "ese ", "653": "thee, ", "654": "world ", "655": "may ", "656": "ince ", "657": "they ", "658": "long", "659": "brea", "660": "th, ", "661": "ses ", "662": "stan", "663": "king ", "664": "How ", "665": "gu", "666": "hu", "667": "use ", "668": "ac", "669": "pla", "670": "Nor ", "671": "ed", "672": "other ", "673": "go", "674": "true ", "675": "per", "676": "Ti", "677": "sc", "678": "my love ", "679": "fin", "680": "though ", "681": "ten", "682": "dee", "683": "ting ", "684": "see ", "685": "if ", "686": "thou", "687": "lt ", "688": "live ", "689": "ve, ", "690": "must ", "691": "ef", "692": "al", "693": "ad", "694": "ds, ", "695": "gainst ", "696": "eal", "697": "ful ", "698": "y.\n", "699": "in my ", "700": "bla", "701": "bet", "702": "sure ", "703": "say ", "704": "thing ", "705": "man", "706": "ings ", "707": "ys ", "708": "pres", "709": "grow", "710": "would ", "711": "wri", "712": "et", "713": "love's ", "714": "beauty's ", "715": "thin", "716": "praise ", "717": "old, ", "718": "fec", "719": "If ", "720": "out", "721": "goo", "722": "ther ", "723": "sta", "724": "erefore ", "725": "upon ", "726": "pen", "727": "fir", "728": "my self ", "729": "fair", "730": "sub", "731": "ty ", "732": "of thy ", "733": "est, ", "734": "e of ", "735": "wr", "736": "if", "737": "those ", "738": "ven ", "739": "alon", "740": ".\nTh", "741": "ed with ", "742": ", To ", "743": "grac", "744": "Yet ", "745": "ear ", "746": "awa", "747": "s, and ", "748": "bra", "749": "day ", "750": "me's ", "751": "dear ", "752": "t of ", "753": "give ", "754": "Ha", "755": "heart ", "756": "ness ", "757": "us ", "758": "of the ", "759": "al ", "760": "ab", "761": "ance ", "762": "ig", "763": "in thy ", "764": "oul", "765": "she ", "766": "d, And ", "767": "ure ", "768": "well ", "769": "bar", "770": "With ", "771": "happ", "772": "hat", "773": "mes ", "774": "sigh", "775": "stor", "776": "nigh", "777": "Since ", "778": "af", "779": "ts, ", "780": "tong", "781": "tongu", "782": "thi", "783": "br", "784": "fal", "785": "bri", "786": "ligh", "787": "h ", "788": "sk", "789": "much ", "790": "dst ", "791": "gla", "792": "Of ", "793": "love", "794": "ough ", "795": "sing", "796": "c ", "797": "how ", "798": "ble ", "799": "son", "800": "s of ", "801": "flow", "802": "id", "803": "der ", "804": "jo", "805": "ich", "806": "well", "807": "ey ", "808": ", That ", "809": "ded ", "810": "tu", "811": "I have ", "812": "in their ", "813": "pain", "814": "life ", "815": "ward ", "816": "I am ", "817": "pi", "818": "for my ", "819": "far ", "820": "lat", "821": "fri", "822": "wo", "823": "better ", "824": "Fr", "825": "might ", "826": "never ", "827": "thine ", "828": "too ", "829": "gl", "830": "prou", "831": "worth ", "832": "d: ", "833": "in th", "834": "chi", "835": "thou art ", "836": "tell", "837": "dr", "838": "dow", "839": "grea", "840": "nat", "841": "hour", "842": "still", "843": "s.\n", "844": "ious ", "845": "strong", "846": "ag", "847": "look ", "848": "By ", "849": "Who ", "850": "sing ", "851": "ate ", "852": "kin", "853": "on the ", "854": "es of ", "855": "tion", "856": "il ", "857": "you, ", "858": "false ", "859": "to my ", "860": "pur", "861": "dis", "862": "Tha", "863": "Than ", "864": "im", "865": "k, ", "866": "we ", "867": "y: ", "868": "wast", "869": "all the ", "870": "lu", "871": "se.\n", "872": "coun", "873": "ered ", "874": "nothing ", "875": "gent", "876": "him", "877": "o'", "878": "A ", "879": "each ", "880": "app", "881": "gri", "882": "end ", "883": "sweet", "884": "kee", "885": "ft ", "886": "best ", "887": "time, ", "888": "hold ", "889": "pre", "890": "No", "891": "ju", "892": "ment ", "893": "s' ", "894": "even ", "895": "ns ", "896": "of your ", "897": "comp", "898": "tain", "899": "out ", "900": "I th", "901": "Whil", "902": "ca", "903": "ul", "904": "gr", "905": "crea", "906": "he", "907": "dy ", "908": "bes", "909": "day", "910": "made ", "911": "bloo", "912": "wom", "913": "of th", "914": "pit", "915": "why ", "916": "ve", "917": "What ", "918": " thee, ", "919": "where", "920": "summer's ", "921": "let ", "922": "ten ", "923": "up ", "924": "that thou ", "925": "bear", "926": "en's ", "927": "'r", "928": "ss", "929": "chan", "930": "wan", "931": "deca", "932": "had ", "933": "t: ", "934": "hy", "935": "lin", "936": "verse ", "937": "writ", "938": "bor", "939": "mine own ", "940": "han", "941": "ound ", "942": "spi", "943": "From ", "944": "tend", "945": "tra", "946": "mak", "947": "be, ", "948": "ee.\n", "949": "Where ", "950": "exc", "951": "ving ", "952": "form ", "953": "whose ", "954": "age ", "955": "y?\n", "956": "shalt ", "957": "Un", "958": "on thy ", "959": "ends ", "960": "eous ", "961": "gentle ", "962": "Sa", "963": "will", "964": "times ", "965": "art, ", "966": "which", "967": "tun", "968": "tri", "969": "e, and ", "970": "happy ", "971": "seem", "972": "hast ", "973": "No ", "974": "may", "975": "mayst ", "976": "gre", "977": "enc", "978": "dear", "979": "sea", "980": "heaven ", "981": "truth ", "982": "bles", "983": "s, And ", "984": "sh ", "985": "ps ", "986": "s: ", "987": "jec", "988": "first ", "989": "Mine ", "990": "them ", "991": "cha", "992": "eng", "993": "'t", "994": "good ", "995": "as", "996": "poor ", "997": "red, ", "998": "night ", "999": "Even ", "1000": "all my ", "1001": "inv", "1002": "sl", "1003": "away, ", "1004": "fear", "1005": "spiri", "1006": "n, ", "1007": "memor", "1008": "eed", "1009": "t's ", "1010": "self-", "1011": "fo", "1012": "fres", "1013": "t the ", "1014": "proud ", "1015": "trea", "1016": "If", "1017": "ouldst ", "1018": "ans", "1019": "sion ", "1020": "to be ", "1021": "new ", "1022": "ook ", "1023": "glass "}, "special_tokens": {"<|sos|>": 256, "<|eos|>": 257, "<|unk|>": 258}, "pattern": "'s|'t|'re|'ve|'m|'ll|'d| ?[A-Za-z]+| ?[0-9]+| ?[^ \\t\\r\\nA-Za-z0-9]+|\\s+(?!\\S)|\\s+"}